const unsigned char gesture_model_tflite[] = {28,0,0,0,84,70,76,51,20,0,32,0,28,0,24,0,20,0,16,0,12,0,0,0,8,0,4,0,20,0,0,0,28,0,0,0,148,0,0,0,236,0,0,0,24,8,0,0,40,8,0,0,52,14,0,0,3,0,0,0,1,0,0,0,16,0,0,0,0,0,10,0,16,0,12,0,8,0,4,0,10,0,0,0,12,0,0,0,28,0,0,0,60,0,0,0,15,0,0,0,115,101,114,118,105,110,103,95,100,101,102,97,117,108,116,0,1,0,0,0,4,0,0,0,148,255,255,255,10,0,0,0,4,0,0,0,8,0,0,0,111,117,116,112,117,116,95,48,0,0,0,0,1,0,0,0,4,0,0,0,206,247,255,255,4,0,0,0,11,0,0,0,105,110,112,117,116,95,108,97,121,101,114,0,2,0,0,0,52,0,0,0,4,0,0,0,220,255,255,255,13,0,0,0,4,0,0,0,19,0,0,0,67,79,78,86,69,82,83,73,79,78,95,77,69,84,65,68,65,84,65,0,8,0,12,0,8,0,4,0,8,0,0,0,12,0,0,0,4,0,0,0,19,0,0,0,109,105,110,95,114,117,110,116,105,109,101,95,118,101,114,115,105,111,110,0,14,0,0,0,40,7,0,0,32,7,0,0,208,6,0,0,180,6,0,0,228,5,0,0,212,1,0,0,4,1,0,0,180,0,0,0,172,0,0,0,164,0,0,0,156,0,0,0,148,0,0,0,116,0,0,0,4,0,0,0,126,248,255,255,4,0,0,0,96,0,0,0,16,0,0,0,0,0,0,0,8,0,14,0,8,0,4,0,8,0,0,0,16,0,0,0,36,0,0,0,0,0,6,0,8,0,4,0,6,0,0,0,4,0,0,0,0,0,0,0,12,0,24,0,20,0,16,0,12,0,4,0,12,0,0,0,88,57,70,56,181,71,53,3,2,0,0,0,2,0,0,0,4,0,0,0,6,0,0,0,50,46,50,49,46,48,0,0,234,248,255,255,4,0,0,0,16,0,0,0,49,46,53,46,48,0,0,0,0,0,0,0,0,0,0,0,168,243,255,255,172,243,255,255,176,243,255,255,180,243,255,255,22,249,255,255,4,0,0,0,64,0,0,0,196,248,33,62,192,111,128,62,92,232,110,62,32,217,98,62,229,195,95,62,137,214,135,62,17,147,59,62,5,156,196,60,29,251,170,61,241,11,79,62,107,97,183,61,47,130,131,62,6,47,72,62,149,40,95,62,204,227,244,61,89,138,230,61,98,249,255,255,4,0,0,0,192,0,0,0,78,242,240,190,170,131,216,190,135,219,17,191,167,13,191,62,231,174,31,62,228,185,5,63,0,180,143,62,73,89,68,63,171,243,14,191,230,216,205,61,19,154,140,189,15,136,77,63,152,235,200,62,114,19,51,190,153,184,149,62,121,153,103,62,234,134,207,62,139,110,50,191,13,119,6,190,82,118,129,190,5,138,22,191,199,100,158,62,80,251,129,190,14,224,133,190,226,82,231,62,102,34,18,63,180,43,196,189,141,234,23,191,48,247,230,190,223,229,19,61,121,218,13,63,238,105,204,190,98,120,156,190,244,195,167,62,41,205,164,190,225,92,217,62,249,106,237,190,32,179,55,191,78,33,37,191,177,99,218,62,148,227,50,62,14,223,26,191,31,83,43,63,18,92,152,62,56,20,40,190,246,245,207,62,193,79,214,62,7,29,39,191,46,250,255,255,4,0,0,0,0,4,0,0,208,109,10,63,88,239,156,62,238,97,99,62,56,56,220,190,136,152,224,190,139,90,217,61,168,0,30,63,69,172,177,188,158,79,250,189,92,33,154,62,104,143,143,61,215,100,57,190,128,26,117,62,53,87,242,190,121,249,153,61,175,171,45,62,0,42,191,190,131,136,197,190,72,213,92,189,201,253,134,62,219,61,169,188,137,110,173,62,74,29,28,190,124,244,16,190,171,108,129,190,234,41,207,190,74,241,193,190,208,139,190,61,132,35,142,61,45,32,199,62,50,81,76,60,98,87,186,190,66,167,184,190,114,51,51,62,235,192,136,190,120,140,208,189,254,208,8,62,181,79,166,190,23,55,173,190,247,85,105,190,212,20,221,61,219,153,156,62,128,37,251,188,225,133,199,190,55,207,137,62,193,154,143,62,46,212,48,62,250,32,82,190,150,71,141,62,195,178,7,63,10,62,77,61,134,141,1,63,124,105,42,62,46,226,191,59,19,137,80,61,87,206,249,189,104,171,176,61,55,233,54,62,124,244,248,190,162,97,208,61,218,226,46,61,43,129,123,189,230,197,175,189,208,231,211,190,88,161,88,62,135,0,240,61,96,84,160,62,89,22,14,191,9,45,229,62,192,41,159,62,132,253,15,63,173,185,97,61,84,134,208,62,59,123,178,189,162,245,32,63,177,188,133,62,141,91,6,63,70,10,10,63,253,3,173,61,111,26,152,61,214,139,177,62,152,203,44,61,53,6,180,60,135,230,19,189,137,12,221,190,38,199,53,62,197,114,235,61,132,142,156,190,212,81,59,190,124,5,84,62,68,53,225,61,82,36,100,190,147,142,9,63,36,59,170,61,24,127,130,190,46,96,214,190,144,42,5,191,40,66,250,62,211,199,38,63,143,160,158,62,195,234,153,62,255,127,50,63,132,153,150,190,66,235,73,62,236,223,8,63,92,249,15,189,212,162,186,189,63,155,21,63,245,96,138,62,137,230,0,63,209,69,180,62,138,70,163,62,102,30,204,62,140,194,239,61,211,184,212,190,186,25,134,62,152,108,146,62,222,121,241,189,197,141,245,189,187,62,10,188,53,76,159,190,232,148,215,62,29,227,167,62,213,158,207,62,223,116,131,190,70,12,15,190,240,168,35,190,219,146,154,189,75,236,212,189,179,255,182,189,166,59,71,190,188,38,34,63,187,72,243,62,27,174,236,190,136,103,148,61,39,168,113,190,13,12,64,190,255,113,146,61,114,87,232,190,252,87,8,63,254,199,78,190,41,7,241,189,34,156,31,62,187,208,28,62,178,243,24,63,75,91,70,62,122,200,149,61,184,244,88,61,103,127,221,190,83,145,1,62,60,194,14,190,228,120,73,62,217,231,129,62,222,69,159,62,89,47,190,190,164,243,160,190,55,107,184,62,230,105,173,190,47,3,21,62,16,218,173,62,205,84,89,190,57,195,95,190,127,18,202,62,128,165,102,61,239,116,75,190,224,54,195,60,116,94,217,61,64,172,69,189,80,237,91,190,165,154,83,190,114,196,26,62,130,76,84,62,64,120,19,188,141,231,155,190,165,85,140,62,229,207,196,190,218,140,121,190,93,62,30,62,32,110,36,189,84,232,135,62,179,9,154,189,224,76,220,189,82,76,166,190,23,1,183,190,150,221,201,189,2,162,169,62,214,253,53,190,198,91,163,62,42,174,53,190,116,47,27,190,55,59,59,62,22,170,82,62,253,245,155,62,160,88,201,62,143,146,0,191,247,227,102,62,35,215,248,62,170,234,183,190,134,141,246,190,160,79,8,190,98,208,184,190,234,186,48,189,54,151,5,190,117,161,132,62,64,64,29,190,238,242,112,190,7,254,133,190,115,144,145,62,70,79,5,63,98,39,161,190,140,85,144,62,125,213,53,61,76,177,26,190,46,200,237,61,56,132,47,190,254,175,131,62,193,227,146,189,10,74,143,62,81,245,146,189,209,222,47,190,251,161,247,61,52,110,26,62,113,122,175,190,138,1,196,61,128,248,224,62,73,13,247,61,141,19,155,190,183,49,122,190,58,41,158,62,197,50,199,62,214,77,205,62,168,247,59,190,81,251,157,189,95,216,159,62,146,151,143,190,65,25,216,190,145,112,31,63,16,126,143,62,59,196,20,190,105,26,4,190,33,249,4,63,40,201,87,188,141,143,133,61,229,198,202,190,107,247,7,62,124,213,108,61,38,122,4,63,144,199,187,62,129,20,94,62,74,189,184,62,254,254,191,190,20,232,9,190,136,168,206,62,190,239,204,190,154,234,252,61,192,102,101,189,58,254,255,255,4,0,0,0,192,0,0,0,186,4,16,191,134,54,191,190,145,178,150,62,166,138,41,63,157,244,6,191,210,61,221,190,49,52,19,190,72,101,132,62,106,3,253,62,28,183,206,189,32,180,254,60,70,142,25,190,118,232,64,63,142,193,106,62,54,212,155,190,157,32,243,190,89,242,46,191,145,102,33,190,72,107,135,61,153,120,246,189,35,43,206,62,157,45,254,61,133,185,186,62,144,167,51,191,161,4,29,191,174,8,154,190,172,98,140,62,116,41,189,189,37,169,240,190,176,208,138,189,250,86,185,190,254,5,29,190,207,88,97,62,103,172,128,190,121,106,135,190,49,32,171,61,44,75,179,60,218,147,53,63,210,24,16,191,37,36,54,190,99,73,219,190,42,185,40,63,208,17,23,190,98,219,8,191,160,244,201,190,91,219,38,63,170,89,251,61,186,91,250,62,6,255,255,255,4,0,0,0,12,0,0,0,49,52,221,60,25,108,223,61,44,141,25,190,30,255,255,255,4,0,0,0,64,0,0,0,122,234,14,62,1,89,131,189,63,98,6,189,239,162,47,62,251,246,159,61,180,113,17,62,218,184,66,62,110,87,14,62,195,251,59,62,48,90,2,62,0,0,0,0,59,174,124,189,214,152,59,62,176,6,49,62,177,200,59,62,54,206,14,62,12,250,255,255,16,250,255,255,15,0,0,0,77,76,73,82,32,67,111,110,118,101,114,116,101,100,46,0,1,0,0,0,20,0,0,0,0,0,14,0,24,0,20,0,16,0,12,0,8,0,4,0,14,0,0,0,20,0,0,0,28,0,0,0,52,1,0,0,56,1,0,0,60,1,0,0,4,0,0,0,109,97,105,110,0,0,0,0,4,0,0,0,220,0,0,0,148,0,0,0,80,0,0,0,20,0,0,0,0,0,14,0,26,0,20,0,16,0,12,0,11,0,4,0,14,0,0,0,28,0,0,0,0,0,0,9,28,0,0,0,32,0,0,0,1,0,0,0,0,0,6,0,8,0,4,0,6,0,0,0,0,0,128,63,1,0,0,0,10,0,0,0,1,0,0,0,9,0,0,0,206,255,255,255,16,0,0,0,0,0,0,8,12,0,0,0,16,0,0,0,212,250,255,255,1,0,0,0,9,0,0,0,3,0,0,0,8,0,0,0,3,0,0,0,2,0,0,0,0,0,14,0,20,0,0,0,16,0,12,0,11,0,4,0,14,0,0,0,16,0,0,0,0,0,0,8,16,0,0,0,20,0,0,0,186,255,255,255,0,0,0,1,1,0,0,0,8,0,0,0,3,0,0,0,7,0,0,0,4,0,0,0,1,0,0,0,0,0,14,0,22,0,0,0,16,0,12,0,11,0,4,0,14,0,0,0,24,0,0,0,0,0,0,8,24,0,0,0,28,0,0,0,0,0,6,0,8,0,7,0,6,0,0,0,0,0,0,1,1,0,0,0,7,0,0,0,3,0,0,0,0,0,0,0,5,0,0,0,6,0,0,0,1,0,0,0,10,0,0,0,1,0,0,0,0,0,0,0,11,0,0,0,68,4,0,0,196,3,0,0,96,3,0,0,16,3,0,0,192,2,0,0,116,2,0,0,16,2,0,0,124,1,0,0,224,0,0,0,96,0,0,0,4,0,0,0,254,251,255,255,0,0,0,1,20,0,0,0,28,0,0,0,28,0,0,0,11,0,0,0,52,0,0,0,2,0,0,0,255,255,255,255,3,0,0,0,232,251,255,255,27,0,0,0,83,116,97,116,101,102,117,108,80,97,114,116,105,116,105,111,110,101,100,67,97,108,108,95,49,58,48,0,2,0,0,0,1,0,0,0,3,0,0,0,86,252,255,255,0,0,0,1,20,0,0,0,28,0,0,0,28,0,0,0,10,0,0,0,88,0,0,0,2,0,0,0,255,255,255,255,3,0,0,0,64,252,255,255,60,0,0,0,115,101,113,117,101,110,116,105,97,108,95,49,47,100,101,110,115,101,95,50,95,49,47,77,97,116,77,117,108,59,115,101,113,117,101,110,116,105,97,108,95,49,47,100,101,110,115,101,95,50,95,49,47,66,105,97,115,65,100,100,0,0,0,0,2,0,0,0,1,0,0,0,3,0,0,0,210,252,255,255,0,0,0,1,20,0,0,0,28,0,0,0,28,0,0,0,9,0,0,0,116,0,0,0,2,0,0,0,255,255,255,255,16,0,0,0,188,252,255,255,88,0,0,0,115,101,113,117,101,110,116,105,97,108,95,49,47,100,101,110,115,101,95,49,95,50,47,77,97,116,77,117,108,59,115,101,113,117,101,110,116,105,97,108,95,49,47,100,101,110,115,101,95,49,95,50,47,82,101,108,117,59,115,101,113,117,101,110,116,105,97,108,95,49,47,100,101,110,115,101,95,49,95,50,47,66,105,97,115,65,100,100,0,0,0,0,2,0,0,0,1,0,0,0,16,0,0,0,106,253,255,255,0,0,0,1,20,0,0,0,28,0,0,0,28,0,0,0,8,0,0,0,108,0,0,0,2,0,0,0,255,255,255,255,16,0,0,0,84,253,255,255,82,0,0,0,115,101,113,117,101,110,116,105,97,108,95,49,47,100,101,110,115,101,95,49,47,77,97,116,77,117,108,59,115,101,113,117,101,110,116,105,97,108,95,49,47,100,101,110,115,101,95,49,47,82,101,108,117,59,115,101,113,117,101,110,116,105,97,108,95,49,47,100,101,110,115,101,95,49,47,66,105,97,115,65,100,100,0,0,2,0,0,0,1,0,0,0,16,0,0,0,118,254,255,255,0,0,0,1,16,0,0,0,16,0,0,0,7,0,0,0,68,0,0,0,212,253,255,255,54,0,0,0,115,101,113,117,101,110,116,105,97,108,95,49,47,100,101,110,115,101,95,49,47,82,101,108,117,59,115,101,113,117,101,110,116,105,97,108,95,49,47,100,101,110,115,101,95,49,47,66,105,97,115,65,100,100,0,0,1,0,0,0,16,0,0,0,214,254,255,255,0,0,0,1,16,0,0,0,16,0,0,0,6,0,0,0,40,0,0,0,52,254,255,255,27,0,0,0,115,101,113,117,101,110,116,105,97,108,95,49,47,100,101,110,115,101,95,49,47,77,97,116,77,117,108,0,2,0,0,0,16,0,0,0,3,0,0,0,30,255,255,255,0,0,0,1,16,0,0,0,16,0,0,0,5,0,0,0,44,0,0,0,124,254,255,255,29,0,0,0,115,101,113,117,101,110,116,105,97,108,95,49,47,100,101,110,115,101,95,49,95,50,47,77,97,116,77,117,108,0,0,0,2,0,0,0,16,0,0,0,16,0,0,0,106,255,255,255,0,0,0,1,16,0,0,0,16,0,0,0,4,0,0,0,44,0,0,0,200,254,255,255,29,0,0,0,115,101,113,117,101,110,116,105,97,108,95,49,47,100,101,110,115,101,95,50,95,49,47,77,97,116,77,117,108,0,0,0,2,0,0,0,3,0,0,0,16,0,0,0,182,255,255,255,0,0,0,1,16,0,0,0,16,0,0,0,3,0,0,0,44,0,0,0,20,255,255,255,30,0,0,0,115,101,113,117,101,110,116,105,97,108,95,49,47,100,101,110,115,101,95,50,95,49,47,66,105,97,115,65,100,100,0,0,1,0,0,0,3,0,0,0,0,0,22,0,24,0,20,0,0,0,16,0,12,0,8,0,0,0,0,0,0,0,7,0,22,0,0,0,0,0,0,1,16,0,0,0,16,0,0,0,2,0,0,0,72,0,0,0,116,255,255,255,58,0,0,0,115,101,113,117,101,110,116,105,97,108,95,49,47,100,101,110,115,101,95,49,95,50,47,82,101,108,117,59,115,101,113,117,101,110,116,105,97,108,95,49,47,100,101,110,115,101,95,49,95,50,47,66,105,97,115,65,100,100,0,0,1,0,0,0,16,0,0,0,0,0,22,0,28,0,24,0,0,0,20,0,16,0,12,0,0,0,0,0,8,0,7,0,22,0,0,0,0,0,0,1,20,0,0,0,32,0,0,0,32,0,0,0,1,0,0,0,60,0,0,0,2,0,0,0,255,255,255,255,3,0,0,0,4,0,4,0,4,0,0,0,29,0,0,0,115,101,114,118,105,110,103,95,100,101,102,97,117,108,116,95,105,110,112,117,116,95,108,97,121,101,114,58,48,0,0,0,2,0,0,0,1,0,0,0,3,0,0,0,2,0,0,0,32,0,0,0,4,0,0,0,244,255,255,255,25,0,0,0,0,0,0,25,12,0,12,0,11,0,0,0,0,0,4,0,12,0,0,0,9,0,0,0,0,0,0,9};
const int gesture_model_tflite_len = 3736;
